const unsigned char model_tflite[] = {
  0x1c, 0x00, 0x00, 0x00, 0x54, 0x46, 0x4c, 0x33, 0x14, 0x00, 0x20, 0x00, 
  0x1c, 0x00, 0x18, 0x00, 0x14, 0x00, 0x10, 0x00, 0x0c, 0x00, 0x00, 0x00, 
  0x08, 0x00, 0x04, 0x00, 0x14, 0x00, 0x00, 0x00, 0x1c, 0x00, 0x00, 0x00, 
  0x98, 0x00, 0x00, 0x00, 0xf0, 0x00, 0x00, 0x00, 0xc0, 0x06, 0x00, 0x00, 
  0xd0, 0x06, 0x00, 0x00, 0x84, 0x0c, 0x00, 0x00, 0x03, 0x00, 0x00, 0x00, 
  0x01, 0x00, 0x00, 0x00, 0x10, 0x00, 0x00, 0x00, 0x00, 0x00, 0x0a, 0x00, 
  0x10, 0x00, 0x0c, 0x00, 0x08, 0x00, 0x04, 0x00, 0x0a, 0x00, 0x00, 0x00, 
  0x0c, 0x00, 0x00, 0x00, 0x1c, 0x00, 0x00, 0x00, 0x3c, 0x00, 0x00, 0x00, 
  0x0f, 0x00, 0x00, 0x00, 0x73, 0x65, 0x72, 0x76, 0x69, 0x6e, 0x67, 0x5f, 
  0x64, 0x65, 0x66, 0x61, 0x75, 0x6c, 0x74, 0x00, 0x01, 0x00, 0x00, 0x00, 
  0x04, 0x00, 0x00, 0x00, 0x90, 0xff, 0xff, 0xff, 0x0a, 0x00, 0x00, 0x00, 
  0x04, 0x00, 0x00, 0x00, 0x08, 0x00, 0x00, 0x00, 0x6f, 0x75, 0x74, 0x70, 
  0x75, 0x74, 0x5f, 0x30, 0x00, 0x00, 0x00, 0x00, 0x01, 0x00, 0x00, 0x00, 
  0x04, 0x00, 0x00, 0x00, 0x26, 0xf9, 0xff, 0xff, 0x04, 0x00, 0x00, 0x00, 
  0x0c, 0x00, 0x00, 0x00, 0x6b, 0x65, 0x72, 0x61, 0x73, 0x5f, 0x74, 0x65, 
  0x6e, 0x73, 0x6f, 0x72, 0x00, 0x00, 0x00, 0x00, 0x02, 0x00, 0x00, 0x00, 
  0x34, 0x00, 0x00, 0x00, 0x04, 0x00, 0x00, 0x00, 0xdc, 0xff, 0xff, 0xff, 
  0x0d, 0x00, 0x00, 0x00, 0x04, 0x00, 0x00, 0x00, 0x13, 0x00, 0x00, 0x00, 
  0x43, 0x4f, 0x4e, 0x56, 0x45, 0x52, 0x53, 0x49, 0x4f, 0x4e, 0x5f, 0x4d, 
  0x45, 0x54, 0x41, 0x44, 0x41, 0x54, 0x41, 0x00, 0x08, 0x00, 0x0c, 0x00, 
  0x08, 0x00, 0x04, 0x00, 0x08, 0x00, 0x00, 0x00, 0x0c, 0x00, 0x00, 0x00, 
  0x04, 0x00, 0x00, 0x00, 0x13, 0x00, 0x00, 0x00, 0x6d, 0x69, 0x6e, 0x5f, 
  0x72, 0x75, 0x6e, 0x74, 0x69, 0x6d, 0x65, 0x5f, 0x76, 0x65, 0x72, 0x73, 
  0x69, 0x6f, 0x6e, 0x00, 0x0e, 0x00, 0x00, 0x00, 0xcc, 0x05, 0x00, 0x00, 
  0xc4, 0x05, 0x00, 0x00, 0x34, 0x05, 0x00, 0x00, 0x24, 0x03, 0x00, 0x00, 
  0x04, 0x03, 0x00, 0x00, 0xd4, 0x02, 0x00, 0x00, 0x84, 0x02, 0x00, 0x00, 
  0xb4, 0x00, 0x00, 0x00, 0xac, 0x00, 0x00, 0x00, 0xa4, 0x00, 0x00, 0x00, 
  0x9c, 0x00, 0x00, 0x00, 0x94, 0x00, 0x00, 0x00, 0x74, 0x00, 0x00, 0x00, 
  0x04, 0x00, 0x00, 0x00, 0xda, 0xf9, 0xff, 0xff, 0x04, 0x00, 0x00, 0x00, 
  0x60, 0x00, 0x00, 0x00, 0x10, 0x00, 0x00, 0x00, 0x00, 0x00, 0x00, 0x00, 
  0x08, 0x00, 0x0e, 0x00, 0x08, 0x00, 0x04, 0x00, 0x08, 0x00, 0x00, 0x00, 
  0x10, 0x00, 0x00, 0x00, 0x24, 0x00, 0x00, 0x00, 0x00, 0x00, 0x06, 0x00, 
  0x08, 0x00, 0x04, 0x00, 0x06, 0x00, 0x00, 0x00, 0x04, 0x00, 0x00, 0x00, 
  0x00, 0x00, 0x00, 0x00, 0x0c, 0x00, 0x18, 0x00, 0x14, 0x00, 0x10, 0x00, 
  0x0c, 0x00, 0x04, 0x00, 0x0c, 0x00, 0x00, 0x00, 0xd0, 0x6b, 0xb1, 0x5d, 
  0xb9, 0xaa, 0x55, 0x7e, 0x02, 0x00, 0x00, 0x00, 0x02, 0x00, 0x00, 0x00, 
  0x04, 0x00, 0x00, 0x00, 0x06, 0x00, 0x00, 0x00, 0x32, 0x2e, 0x31, 0x39, 
  0x2e, 0x30, 0x00, 0x00, 0x46, 0xfa, 0xff, 0xff, 0x04, 0x00, 0x00, 0x00, 
  0x10, 0x00, 0x00, 0x00, 0x31, 0x2e, 0x35, 0x2e, 0x30, 0x00, 0x00, 0x00, 
  0x00, 0x00, 0x00, 0x00, 0x00, 0x00, 0x00, 0x00, 0x5c, 0xf5, 0xff, 0xff, 
  0x60, 0xf5, 0xff, 0xff, 0x64, 0xf5, 0xff, 0xff, 0x68, 0xf5, 0xff, 0xff, 
  0x72, 0xfa, 0xff, 0xff, 0x04, 0x00, 0x00, 0x00, 0xc0, 0x01, 0x00, 0x00, 
  0xe0, 0xd9, 0xd9, 0x3e, 0x1a, 0x54, 0x38, 0xbd, 0x89, 0x8b, 0x55, 0xbe, 
  0xca, 0x33, 0xa2, 0xbd, 0xe2, 0x8c, 0x85, 0xbf, 0xa1, 0x6b, 0x8c, 0xbe, 
  0xa7, 0x20, 0x5a, 0xbb, 0x0b, 0x35, 0x8f, 0xbe, 0x45, 0x70, 0x0c, 0xbe, 
  0xbf, 0x76, 0x67, 0x3e, 0x63, 0x55, 0xf1, 0xbd, 0x58, 0xac, 0x1a, 0xbf, 
  0x8a, 0x41, 0x91, 0xbd, 0x70, 0x45, 0x06, 0x3e, 0x17, 0x4e, 0xc1, 0xbe, 
  0x40, 0x4f, 0x07, 0xbf, 0x05, 0xe5, 0x0b, 0xbe, 0xb5, 0xc7, 0xd3, 0xbe, 
  0x04, 0xa2, 0x51, 0x3e, 0xad, 0x06, 0x1f, 0xbe, 0x9c, 0x51, 0xba, 0x3e, 
  0xa0, 0x67, 0x18, 0xbe, 0xcb, 0x73, 0xda, 0x3e, 0x5e, 0x0d, 0x90, 0x3e, 
  0xa7, 0x39, 0xc0, 0x3e, 0xe7, 0x99, 0xc6, 0xbc, 0xc4, 0xc0, 0x6f, 0xbe, 
  0x86, 0x3c, 0x67, 0xbe, 0xf3, 0x34, 0x93, 0xbd, 0x50, 0xb5, 0xb6, 0xbe, 
  0xf6, 0x4c, 0xf6, 0x3e, 0x8a, 0xc1, 0x83, 0xbe, 0x67, 0xca, 0xaf, 0xbe, 
  0xc9, 0x91, 0xba, 0x3e, 0xe6, 0x88, 0xa6, 0x3e, 0x6a, 0xe3, 0xa3, 0xbf, 
  0x80, 0xdb, 0x99, 0xbe, 0x8d, 0x21, 0xcf, 0x3d, 0xd7, 0xf3, 0x05, 0xbe, 
  0x92, 0xe7, 0x0d, 0x3f, 0x8e, 0x9a, 0x64, 0xbe, 0xf2, 0xaf, 0xce, 0x3c, 
  0xbf, 0x22, 0xa2, 0xbc, 0xaf, 0x87, 0x47, 0x3f, 0x48, 0x53, 0xa8, 0xbd, 
  0x53, 0x65, 0x3f, 0x3e, 0x6d, 0xed, 0xfe, 0x3d, 0xba, 0x17, 0x98, 0x3b, 
  0x56, 0x53, 0x8b, 0x3e, 0xf2, 0x28, 0xf4, 0x3e, 0x5b, 0xc8, 0x25, 0x3e, 
  0x22, 0x5b, 0xb9, 0xba, 0x5c, 0x41, 0x96, 0x3b, 0xb4, 0xf1, 0x23, 0x3f, 
  0x6c, 0x4a, 0x35, 0xbf, 0x1b, 0x3a, 0x88, 0x3e, 0x8b, 0xc0, 0x4e, 0xbd, 
  0x8e, 0x67, 0xdd, 0xbe, 0x3c, 0x35, 0xaa, 0x3e, 0xcd, 0x35, 0x5d, 0xbf, 
  0x41, 0xa7, 0x28, 0x3d, 0xf9, 0xce, 0xb2, 0x3c, 0x2c, 0x07, 0x49, 0xbe, 
  0x71, 0x60, 0xa2, 0xbe, 0x8c, 0x6b, 0x34, 0xbb, 0x0f, 0x6a, 0x89, 0xbd, 
  0x24, 0x96, 0x66, 0x3e, 0xc1, 0x7c, 0xf6, 0xbe, 0x60, 0xcc, 0xb8, 0x3d, 
  0x2a, 0x79, 0xef, 0x3e, 0x9e, 0xce, 0x23, 0xbc, 0xb0, 0x6c, 0x51, 0xbe, 
  0xfb, 0xa2, 0x04, 0x3d, 0x6a, 0xf7, 0xdc, 0x3c, 0x85, 0x7d, 0xbc, 0xbd, 
  0x6f, 0x78, 0x85, 0x3f, 0xb0, 0xc7, 0x03, 0xbc, 0x77, 0xcc, 0xf0, 0x3e, 
  0x45, 0xdb, 0xcf, 0x3d, 0x82, 0xaa, 0x25, 0xbf, 0xdc, 0x0d, 0x55, 0x3d, 
  0xfe, 0x7e, 0xa6, 0x3e, 0x61, 0xe8, 0x4b, 0xbe, 0xe1, 0x0c, 0x26, 0xbe, 
  0xc4, 0x58, 0x5d, 0xbe, 0xf4, 0x22, 0x8b, 0x3e, 0xb7, 0x9e, 0x01, 0x3e, 
  0x2a, 0xd6, 0xbb, 0xbe, 0x81, 0xaa, 0xbf, 0x3e, 0xdc, 0x08, 0xa6, 0xbc, 
  0x5b, 0xb9, 0xa7, 0xbe, 0x8e, 0xdf, 0xab, 0x3e, 0x20, 0x2d, 0xb8, 0xbe, 
  0xd4, 0x53, 0xf2, 0xbe, 0x64, 0x6e, 0xf8, 0xba, 0xed, 0xff, 0x7b, 0x3e, 
  0x18, 0xc0, 0x32, 0x3f, 0xdf, 0x1f, 0x50, 0xbe, 0xa7, 0x92, 0x0e, 0xbf, 
  0x07, 0xe7, 0x2f, 0x3e, 0x61, 0xc3, 0x06, 0x3e, 0x7d, 0x31, 0x98, 0xbe, 
  0xef, 0x30, 0x49, 0x3d, 0x2d, 0x70, 0xdf, 0x3e, 0xe7, 0x8c, 0x3c, 0x3d, 
  0x03, 0xc0, 0x34, 0xbe, 0x08, 0xb3, 0xd3, 0xbe, 0xde, 0xbd, 0xda, 0x3e, 
  0x97, 0xd7, 0xf3, 0xbe, 0xd2, 0x56, 0x78, 0xbe, 0xe6, 0x38, 0xf4, 0x3e, 
  0x38, 0xcd, 0xd7, 0xbe, 0x3e, 0xfc, 0xff, 0xff, 0x04, 0x00, 0x00, 0x00, 
  0x40, 0x00, 0x00, 0x00, 0xa8, 0x78, 0x48, 0x3f, 0x48, 0x42, 0xa6, 0xbe, 
  0xff, 0x83, 0x6d, 0xbf, 0x41, 0x47, 0xd8, 0x3d, 0xfc, 0x41, 0x1d, 0xbf, 
  0x1a, 0x0a, 0x9e, 0x3e, 0x40, 0x22, 0x4f, 0x3f, 0x4b, 0xd8, 0xdf, 0x3e, 
  0x91, 0x17, 0xe9, 0x3e, 0x5b, 0x3e, 0xde, 0xbe, 0x1c, 0x8d, 0x5b, 0x3e, 
  0x09, 0x4e, 0x89, 0x3e, 0xb8, 0xbc, 0xfa, 0xbd, 0x1f, 0x9c, 0x15, 0x3f, 
  0x6d, 0x94, 0x62, 0x3f, 0xc9, 0xda, 0x87, 0x3e, 0x8a, 0xfc, 0xff, 0xff, 
  0x04, 0x00, 0x00, 0x00, 0x20, 0x00, 0x00, 0x00, 0x80, 0x57, 0x20, 0xbe, 
  0x0f, 0xf3, 0x5a, 0x3e, 0xee, 0x56, 0xf4, 0x3e, 0xc4, 0xe4, 0xf7, 0xbd, 
  0x4f, 0x15, 0x82, 0x3f, 0x92, 0x9e, 0x04, 0xbf, 0xd2, 0x48, 0x9d, 0x3e, 
  0xd8, 0x06, 0xb2, 0x3d, 0xb6, 0xfc, 0xff, 0xff, 0x04, 0x00, 0x00, 0x00, 
  0x10, 0x00, 0x00, 0x00, 0x51, 0x49, 0x8a, 0x3e, 0xf2, 0x9f, 0x07, 0xbf, 
  0xeb, 0xd8, 0x8b, 0xbe, 0x35, 0xb1, 0x3b, 0x3f, 0xd2, 0xfc, 0xff, 0xff, 
  0x04, 0x00, 0x00, 0x00, 0x00, 0x02, 0x00, 0x00, 0xba, 0x86, 0x2e, 0x3f, 
  0xfa, 0x61, 0x0c, 0xbe, 0x57, 0x58, 0xa1, 0x3c, 0xb6, 0xd6, 0x14, 0x3f, 
  0x42, 0x3b, 0xad, 0x3c, 0x3c, 0x2d, 0xb7, 0x3e, 0x5d, 0x2d, 0xaf, 0xbe, 
  0x3b, 0x2e, 0x63, 0xbb, 0x18, 0x7a, 0x35, 0x3d, 0x49, 0x7f, 0xdb, 0x3e, 
  0x84, 0x3f, 0x42, 0xbf, 0xd1, 0x68, 0x91, 0x3f, 0x18, 0x24, 0x85, 0x3e, 
  0xb0, 0x76, 0x1b, 0x3f, 0xe8, 0x90, 0xa4, 0xbc, 0x0d, 0xa5, 0xf1, 0x3e, 
  0x73, 0x53, 0xca, 0xbe, 0xa8, 0xcf, 0xb1, 0xbe, 0x03, 0x38, 0x21, 0x3e, 
  0x67, 0x39, 0x42, 0x3f, 0xd7, 0xb1, 0x91, 0xbc, 0x86, 0x0f, 0x12, 0xbf, 
  0xd3, 0xdc, 0xf8, 0x3d, 0xd7, 0x14, 0x7a, 0x3e, 0x0f, 0xa1, 0x5d, 0xbf, 
  0x7e, 0xd1, 0x94, 0xbe, 0x08, 0x0b, 0xa8, 0x3e, 0x29, 0x81, 0x61, 0x3f, 
  0x5c, 0x75, 0x8e, 0x3e, 0x2b, 0x55, 0x16, 0x3e, 0xa5, 0x40, 0xc5, 0x3d, 
  0x11, 0x8d, 0xac, 0x3d, 0x49, 0xaf, 0xb8, 0x3e, 0xae, 0x1e, 0x98, 0x3e, 
  0x26, 0xe5, 0xb6, 0xbd, 0x64, 0xef, 0x05, 0x3f, 0x31, 0x8f, 0x7a, 0xbe, 
  0xae, 0x3f, 0x86, 0x3f, 0x1a, 0xd4, 0xed, 0x3d, 0xe0, 0xa5, 0x87, 0xbe, 
  0x5e, 0x58, 0x83, 0xbf, 0xf5, 0x0e, 0x98, 0x3d, 0xaa, 0xc3, 0x45, 0x3f, 
  0x17, 0x4e, 0xe7, 0x3e, 0xfb, 0xc7, 0x43, 0xbd, 0x78, 0x80, 0x0e, 0xbf, 
  0x25, 0x7b, 0x0c, 0x3f, 0x78, 0x9d, 0x37, 0xbf, 0x71, 0x3d, 0x0a, 0xbf, 
  0xc7, 0x9e, 0x97, 0xbd, 0x60, 0x9c, 0x80, 0xbd, 0x20, 0x2e, 0x3c, 0x3d, 
  0x25, 0x25, 0x87, 0xbe, 0x49, 0x90, 0xd1, 0x3e, 0x27, 0xe1, 0x5d, 0x3e, 
  0xe6, 0x4e, 0x7f, 0x3e, 0x8d, 0x0c, 0x18, 0x3f, 0x04, 0x77, 0xdc, 0xbe, 
  0xda, 0xef, 0xba, 0xbe, 0x6f, 0xcf, 0x67, 0xbe, 0xda, 0x8a, 0x0c, 0xbf, 
  0xb5, 0xd4, 0xa0, 0xbe, 0xc1, 0x10, 0xc8, 0xbe, 0x38, 0xc3, 0xff, 0xbe, 
  0xa2, 0x81, 0x30, 0x3f, 0xfd, 0x0f, 0xcd, 0xbd, 0x6b, 0x6b, 0x59, 0xbe, 
  0x1a, 0xe0, 0x54, 0xbf, 0x36, 0x79, 0xab, 0xbc, 0x65, 0xbe, 0x62, 0xbe, 
  0xe4, 0x3a, 0x9f, 0x3e, 0xaf, 0xe1, 0x2d, 0x3b, 0x7b, 0xb9, 0x05, 0x3e, 
  0xf9, 0x88, 0x20, 0x3e, 0x55, 0x57, 0x82, 0x3f, 0x60, 0x2d, 0x39, 0xbf, 
  0xba, 0x8c, 0xa7, 0x3e, 0x42, 0x1e, 0xd8, 0xbb, 0x06, 0x37, 0xd9, 0x3e, 
  0x5a, 0xc1, 0xbd, 0x3e, 0xa5, 0xb6, 0x35, 0xbf, 0x42, 0x0e, 0xc3, 0x3e, 
  0x16, 0xbf, 0x86, 0x3e, 0x36, 0x39, 0xcd, 0x3e, 0x94, 0xcf, 0x56, 0x3e, 
  0x42, 0x46, 0x84, 0xbc, 0x77, 0x27, 0xf7, 0xbe, 0xe2, 0x33, 0x05, 0xbf, 
  0x76, 0x5d, 0xd0, 0xbe, 0x27, 0x95, 0xcb, 0x3e, 0x71, 0xec, 0x63, 0x3f, 
  0xac, 0x8d, 0xdb, 0x3d, 0xcc, 0xfb, 0xcb, 0x3e, 0x24, 0xb3, 0x31, 0xbe, 
  0xeb, 0x2f, 0x7b, 0xbe, 0xab, 0x00, 0xc4, 0x3e, 0xee, 0xb6, 0x48, 0x3e, 
  0xdd, 0x1e, 0x27, 0x3e, 0x06, 0x38, 0x11, 0xbf, 0xd7, 0x07, 0x6a, 0xbe, 
  0xb5, 0x5d, 0xa8, 0xbe, 0xa6, 0xf3, 0xcc, 0x3e, 0x46, 0xed, 0x9b, 0x3e, 
  0xbb, 0x6a, 0x36, 0x3e, 0xa4, 0x25, 0x40, 0x3f, 0xfa, 0x1b, 0x24, 0xbf, 
  0xf3, 0x62, 0x00, 0x3f, 0xbf, 0x3c, 0xe5, 0x3e, 0x0e, 0x9a, 0x2b, 0xbe, 
  0x31, 0x58, 0x06, 0x3f, 0xda, 0x0b, 0x5b, 0x3e, 0xd2, 0xb1, 0x6f, 0x3d, 
  0x7f, 0x92, 0x16, 0x3f, 0xd2, 0xf9, 0x04, 0x3d, 0x2b, 0xf9, 0xa5, 0xbe, 
  0xcf, 0x30, 0x11, 0x3f, 0x7e, 0xa4, 0x4f, 0x3e, 0x8a, 0x66, 0x37, 0xbe, 
  0x91, 0x8a, 0x58, 0x3e, 0x4f, 0x8d, 0x08, 0x3e, 0xc0, 0x78, 0x7d, 0xbe, 
  0x93, 0xb1, 0x70, 0xbe, 0xd7, 0x86, 0x20, 0x3f, 0xb7, 0x1e, 0x26, 0x3f, 
  0x88, 0x8a, 0xcb, 0xbd, 0xf0, 0xee, 0x0e, 0x3f, 0x09, 0xe4, 0x0a, 0xbf, 
  0xa0, 0xe1, 0x36, 0xbf, 0xde, 0xfe, 0xff, 0xff, 0x04, 0x00, 0x00, 0x00, 
  0x80, 0x00, 0x00, 0x00, 0x72, 0xbb, 0xb0, 0x3e, 0xfa, 0x92, 0x86, 0x3f, 
  0x1d, 0xdb, 0x7e, 0x3f, 0xcd, 0x2e, 0x29, 0xbf, 0x5d, 0xe2, 0x5a, 0xbd, 
  0x9a, 0xf4, 0xfa, 0xbe, 0xa8, 0xd4, 0x88, 0xbe, 0xc3, 0x8b, 0x36, 0x3f, 
  0x2c, 0x31, 0xc4, 0x3e, 0x29, 0x46, 0xc4, 0xbe, 0xe5, 0x98, 0xdc, 0xbe, 
  0x9f, 0x06, 0x43, 0xbe, 0x17, 0xec, 0x4b, 0xbf, 0xa2, 0x22, 0x03, 0x3f, 
  0xc2, 0x4f, 0x76, 0x3f, 0x7f, 0x2c, 0x1b, 0x3f, 0xbb, 0x85, 0x9a, 0xbf, 
  0x5d, 0x21, 0x8a, 0xbf, 0x40, 0x20, 0xac, 0x3e, 0x9c, 0x54, 0x13, 0x3f, 
  0xa1, 0x5a, 0x37, 0x3f, 0x06, 0xaa, 0x51, 0x3e, 0x7d, 0x2e, 0x37, 0xbf, 
  0xe9, 0x08, 0x18, 0xbf, 0x67, 0xde, 0x80, 0xbe, 0x7e, 0x0f, 0x8b, 0xbf, 
  0x12, 0xd9, 0x4e, 0xbf, 0xb7, 0x14, 0x32, 0x3f, 0x35, 0xd5, 0x1c, 0x3f, 
  0x50, 0x22, 0x2f, 0xbf, 0x28, 0x56, 0x25, 0x3f, 0xe1, 0x2a, 0x2e, 0xbf, 
  0x64, 0xfa, 0xff, 0xff, 0x68, 0xfa, 0xff, 0xff, 0x0f, 0x00, 0x00, 0x00, 
  0x4d, 0x4c, 0x49, 0x52, 0x20, 0x43, 0x6f, 0x6e, 0x76, 0x65, 0x72, 0x74, 
  0x65, 0x64, 0x2e, 0x00, 0x01, 0x00, 0x00, 0x00, 0x14, 0x00, 0x00, 0x00, 
  0x00, 0x00, 0x0e, 0x00, 0x18, 0x00, 0x14, 0x00, 0x10, 0x00, 0x0c, 0x00, 
  0x08, 0x00, 0x04, 0x00, 0x0e, 0x00, 0x00, 0x00, 0x14, 0x00, 0x00, 0x00, 
  0x1c, 0x00, 0x00, 0x00, 0x24, 0x01, 0x00, 0x00, 0x28, 0x01, 0x00, 0x00, 
  0x2c, 0x01, 0x00, 0x00, 0x04, 0x00, 0x00, 0x00, 0x6d, 0x61, 0x69, 0x6e, 
  0x00, 0x00, 0x00, 0x00, 0x04, 0x00, 0x00, 0x00, 0xcc, 0x00, 0x00, 0x00, 
  0x84, 0x00, 0x00, 0x00, 0x50, 0x00, 0x00, 0x00, 0x14, 0x00, 0x00, 0x00, 
  0x00, 0x00, 0x0e, 0x00, 0x1a, 0x00, 0x14, 0x00, 0x10, 0x00, 0x0c, 0x00, 
  0x0b, 0x00, 0x04, 0x00, 0x0e, 0x00, 0x00, 0x00, 0x1c, 0x00, 0x00, 0x00, 
  0x00, 0x00, 0x00, 0x09, 0x1c, 0x00, 0x00, 0x00, 0x20, 0x00, 0x00, 0x00, 
  0x01, 0x00, 0x00, 0x00, 0x00, 0x00, 0x06, 0x00, 0x08, 0x00, 0x04, 0x00, 
  0x06, 0x00, 0x00, 0x00, 0x00, 0x00, 0x80, 0x3f, 0x01, 0x00, 0x00, 0x00, 
  0x0a, 0x00, 0x00, 0x00, 0x01, 0x00, 0x00, 0x00, 0x09, 0x00, 0x00, 0x00, 
  0x9a, 0xff, 0xff, 0xff, 0x10, 0x00, 0x00, 0x00, 0x00, 0x00, 0x00, 0x08, 
  0x0c, 0x00, 0x00, 0x00, 0x10, 0x00, 0x00, 0x00, 0x2c, 0xfb, 0xff, 0xff, 
  0x01, 0x00, 0x00, 0x00, 0x09, 0x00, 0x00, 0x00, 0x03, 0x00, 0x00, 0x00, 
  0x08, 0x00, 0x00, 0x00, 0x01, 0x00, 0x00, 0x00, 0x03, 0x00, 0x00, 0x00, 
  0xca, 0xff, 0xff, 0xff, 0x10, 0x00, 0x00, 0x00, 0x00, 0x00, 0x00, 0x08, 
  0x10, 0x00, 0x00, 0x00, 0x14, 0x00, 0x00, 0x00, 0xba, 0xff, 0xff, 0xff, 
  0x00, 0x00, 0x00, 0x01, 0x01, 0x00, 0x00, 0x00, 0x08, 0x00, 0x00, 0x00, 
  0x03, 0x00, 0x00, 0x00, 0x07, 0x00, 0x00, 0x00, 0x02, 0x00, 0x00, 0x00, 
  0x04, 0x00, 0x00, 0x00, 0x00, 0x00, 0x0e, 0x00, 0x16, 0x00, 0x00, 0x00, 
  0x10, 0x00, 0x0c, 0x00, 0x0b, 0x00, 0x04, 0x00, 0x0e, 0x00, 0x00, 0x00, 
  0x18, 0x00, 0x00, 0x00, 0x00, 0x00, 0x00, 0x08, 0x18, 0x00, 0x00, 0x00, 
  0x1c, 0x00, 0x00, 0x00, 0x00, 0x00, 0x06, 0x00, 0x08, 0x00, 0x07, 0x00, 
  0x06, 0x00, 0x00, 0x00, 0x00, 0x00, 0x00, 0x01, 0x01, 0x00, 0x00, 0x00, 
  0x07, 0x00, 0x00, 0x00, 0x03, 0x00, 0x00, 0x00, 0x00, 0x00, 0x00, 0x00, 
  0x06, 0x00, 0x00, 0x00, 0x05, 0x00, 0x00, 0x00, 0x01, 0x00, 0x00, 0x00, 
  0x0a, 0x00, 0x00, 0x00, 0x01, 0x00, 0x00, 0x00, 0x00, 0x00, 0x00, 0x00, 
  0x0b, 0x00, 0x00, 0x00, 0xfc, 0x03, 0x00, 0x00, 0xa4, 0x03, 0x00, 0x00, 
  0x4c, 0x03, 0x00, 0x00, 0x10, 0x03, 0x00, 0x00, 0xb4, 0x02, 0x00, 0x00, 
  0x5c, 0x02, 0x00, 0x00, 0x10, 0x02, 0x00, 0x00, 0x7c, 0x01, 0x00, 0x00, 
  0xe0, 0x00, 0x00, 0x00, 0x60, 0x00, 0x00, 0x00, 0x04, 0x00, 0x00, 0x00, 
  0x46, 0xfc, 0xff, 0xff, 0x00, 0x00, 0x00, 0x01, 0x14, 0x00, 0x00, 0x00, 
  0x1c, 0x00, 0x00, 0x00, 0x1c, 0x00, 0x00, 0x00, 0x0b, 0x00, 0x00, 0x00, 
  0x34, 0x00, 0x00, 0x00, 0x02, 0x00, 0x00, 0x00, 0xff, 0xff, 0xff, 0xff, 
  0x04, 0x00, 0x00, 0x00, 0x30, 0xfc, 0xff, 0xff, 0x1b, 0x00, 0x00, 0x00, 
  0x53, 0x74, 0x61, 0x74, 0x65, 0x66, 0x75, 0x6c, 0x50, 0x61, 0x72, 0x74, 
  0x69, 0x74, 0x69, 0x6f, 0x6e, 0x65, 0x64, 0x43, 0x61, 0x6c, 0x6c, 0x5f, 
  0x31, 0x3a, 0x30, 0x00, 0x02, 0x00, 0x00, 0x00, 0x01, 0x00, 0x00, 0x00, 
  0x04, 0x00, 0x00, 0x00, 0x9e, 0xfc, 0xff, 0xff, 0x00, 0x00, 0x00, 0x01, 
  0x14, 0x00, 0x00, 0x00, 0x1c, 0x00, 0x00, 0x00, 0x1c, 0x00, 0x00, 0x00, 
  0x0a, 0x00, 0x00, 0x00, 0x58, 0x00, 0x00, 0x00, 0x02, 0x00, 0x00, 0x00, 
  0xff, 0xff, 0xff, 0xff, 0x04, 0x00, 0x00, 0x00, 0x88, 0xfc, 0xff, 0xff, 
  0x3c, 0x00, 0x00, 0x00, 0x73, 0x65, 0x71, 0x75, 0x65, 0x6e, 0x74, 0x69, 
  0x61, 0x6c, 0x5f, 0x31, 0x2f, 0x64, 0x65, 0x6e, 0x73, 0x65, 0x5f, 0x32, 
  0x5f, 0x31, 0x2f, 0x4d, 0x61, 0x74, 0x4d, 0x75, 0x6c, 0x3b, 0x73, 0x65, 
  0x71, 0x75, 0x65, 0x6e, 0x74, 0x69, 0x61, 0x6c, 0x5f, 0x31, 0x2f, 0x64, 
  0x65, 0x6e, 0x73, 0x65, 0x5f, 0x32, 0x5f, 0x31, 0x2f, 0x42, 0x69, 0x61, 
  0x73, 0x41, 0x64, 0x64, 0x00, 0x00, 0x00, 0x00, 0x02, 0x00, 0x00, 0x00, 
  0x01, 0x00, 0x00, 0x00, 0x04, 0x00, 0x00, 0x00, 0x1a, 0xfd, 0xff, 0xff, 
  0x00, 0x00, 0x00, 0x01, 0x14, 0x00, 0x00, 0x00, 0x1c, 0x00, 0x00, 0x00, 
  0x1c, 0x00, 0x00, 0x00, 0x09, 0x00, 0x00, 0x00, 0x74, 0x00, 0x00, 0x00, 
  0x02, 0x00, 0x00, 0x00, 0xff, 0xff, 0xff, 0xff, 0x08, 0x00, 0x00, 0x00, 
  0x04, 0xfd, 0xff, 0xff, 0x58, 0x00, 0x00, 0x00, 0x73, 0x65, 0x71, 0x75, 
  0x65, 0x6e, 0x74, 0x69, 0x61, 0x6c, 0x5f, 0x31, 0x2f, 0x64, 0x65, 0x6e, 
  0x73, 0x65, 0x5f, 0x31, 0x5f, 0x32, 0x2f, 0x4d, 0x61, 0x74, 0x4d, 0x75, 
  0x6c, 0x3b, 0x73, 0x65, 0x71, 0x75, 0x65, 0x6e, 0x74, 0x69, 0x61, 0x6c, 
  0x5f, 0x31, 0x2f, 0x64, 0x65, 0x6e, 0x73, 0x65, 0x5f, 0x31, 0x5f, 0x32, 
  0x2f, 0x52, 0x65, 0x6c, 0x75, 0x3b, 0x73, 0x65, 0x71, 0x75, 0x65, 0x6e, 
  0x74, 0x69, 0x61, 0x6c, 0x5f, 0x31, 0x2f, 0x64, 0x65, 0x6e, 0x73, 0x65, 
  0x5f, 0x31, 0x5f, 0x32, 0x2f, 0x42, 0x69, 0x61, 0x73, 0x41, 0x64, 0x64, 
  0x00, 0x00, 0x00, 0x00, 0x02, 0x00, 0x00, 0x00, 0x01, 0x00, 0x00, 0x00, 
  0x08, 0x00, 0x00, 0x00, 0xb2, 0xfd, 0xff, 0xff, 0x00, 0x00, 0x00, 0x01, 
  0x14, 0x00, 0x00, 0x00, 0x1c, 0x00, 0x00, 0x00, 0x1c, 0x00, 0x00, 0x00, 
  0x08, 0x00, 0x00, 0x00, 0x6c, 0x00, 0x00, 0x00, 0x02, 0x00, 0x00, 0x00, 
  0xff, 0xff, 0xff, 0xff, 0x10, 0x00, 0x00, 0x00, 0x9c, 0xfd, 0xff, 0xff, 
  0x52, 0x00, 0x00, 0x00, 0x73, 0x65, 0x71, 0x75, 0x65, 0x6e, 0x74, 0x69, 
  0x61, 0x6c, 0x5f, 0x31, 0x2f, 0x64, 0x65, 0x6e, 0x73, 0x65, 0x5f, 0x31, 
  0x2f, 0x4d, 0x61, 0x74, 0x4d, 0x75, 0x6c, 0x3b, 0x73, 0x65, 0x71, 0x75, 
  0x65, 0x6e, 0x74, 0x69, 0x61, 0x6c, 0x5f, 0x31, 0x2f, 0x64, 0x65, 0x6e, 
  0x73, 0x65, 0x5f, 0x31, 0x2f, 0x52, 0x65, 0x6c, 0x75, 0x3b, 0x73, 0x65, 
  0x71, 0x75, 0x65, 0x6e, 0x74, 0x69, 0x61, 0x6c, 0x5f, 0x31, 0x2f, 0x64, 
  0x65, 0x6e, 0x73, 0x65, 0x5f, 0x31, 0x2f, 0x42, 0x69, 0x61, 0x73, 0x41, 
  0x64, 0x64, 0x00, 0x00, 0x02, 0x00, 0x00, 0x00, 0x01, 0x00, 0x00, 0x00, 
  0x10, 0x00, 0x00, 0x00, 0x96, 0xfe, 0xff, 0xff, 0x00, 0x00, 0x00, 0x01, 
  0x10, 0x00, 0x00, 0x00, 0x10, 0x00, 0x00, 0x00, 0x07, 0x00, 0x00, 0x00, 
  0x28, 0x00, 0x00, 0x00, 0x1c, 0xfe, 0xff, 0xff, 0x1b, 0x00, 0x00, 0x00, 
  0x73, 0x65, 0x71, 0x75, 0x65, 0x6e, 0x74, 0x69, 0x61, 0x6c, 0x5f, 0x31, 
  0x2f, 0x64, 0x65, 0x6e, 0x73, 0x65, 0x5f, 0x31, 0x2f, 0x4d, 0x61, 0x74, 
  0x4d, 0x75, 0x6c, 0x00, 0x02, 0x00, 0x00, 0x00, 0x10, 0x00, 0x00, 0x00, 
  0x07, 0x00, 0x00, 0x00, 0xde, 0xfe, 0xff, 0xff, 0x00, 0x00, 0x00, 0x01, 
  0x10, 0x00, 0x00, 0x00, 0x10, 0x00, 0x00, 0x00, 0x06, 0x00, 0x00, 0x00, 
  0x38, 0x00, 0x00, 0x00, 0x64, 0xfe, 0xff, 0xff, 0x2b, 0x00, 0x00, 0x00, 
  0x73, 0x65, 0x71, 0x75, 0x65, 0x6e, 0x74, 0x69, 0x61, 0x6c, 0x5f, 0x31, 
  0x2f, 0x64, 0x65, 0x6e, 0x73, 0x65, 0x5f, 0x31, 0x2f, 0x42, 0x69, 0x61, 
  0x73, 0x41, 0x64, 0x64, 0x2f, 0x52, 0x65, 0x61, 0x64, 0x56, 0x61, 0x72, 
  0x69, 0x61, 0x62, 0x6c, 0x65, 0x4f, 0x70, 0x00, 0x01, 0x00, 0x00, 0x00, 
  0x10, 0x00, 0x00, 0x00, 0x32, 0xff, 0xff, 0xff, 0x00, 0x00, 0x00, 0x01, 
  0x10, 0x00, 0x00, 0x00, 0x10, 0x00, 0x00, 0x00, 0x05, 0x00, 0x00, 0x00, 
  0x3c, 0x00, 0x00, 0x00, 0xb8, 0xfe, 0xff, 0xff, 0x2d, 0x00, 0x00, 0x00, 
  0x73, 0x65, 0x71, 0x75, 0x65, 0x6e, 0x74, 0x69, 0x61, 0x6c, 0x5f, 0x31, 
  0x2f, 0x64, 0x65, 0x6e, 0x73, 0x65, 0x5f, 0x31, 0x5f, 0x32, 0x2f, 0x42, 
  0x69, 0x61, 0x73, 0x41, 0x64, 0x64, 0x2f, 0x52, 0x65, 0x61, 0x64, 0x56, 
  0x61, 0x72, 0x69, 0x61, 0x62, 0x6c, 0x65, 0x4f, 0x70, 0x00, 0x00, 0x00, 
  0x01, 0x00, 0x00, 0x00, 0x08, 0x00, 0x00, 0x00, 0x8a, 0xff, 0xff, 0xff, 
  0x00, 0x00, 0x00, 0x01, 0x10, 0x00, 0x00, 0x00, 0x10, 0x00, 0x00, 0x00, 
  0x04, 0x00, 0x00, 0x00, 0x1c, 0x00, 0x00, 0x00, 0x10, 0xff, 0xff, 0xff, 
  0x0f, 0x00, 0x00, 0x00, 0x61, 0x72, 0x69, 0x74, 0x68, 0x2e, 0x63, 0x6f, 
  0x6e, 0x73, 0x74, 0x61, 0x6e, 0x74, 0x32, 0x00, 0x01, 0x00, 0x00, 0x00, 
  0x04, 0x00, 0x00, 0x00, 0xc2, 0xff, 0xff, 0xff, 0x00, 0x00, 0x00, 0x01, 
  0x10, 0x00, 0x00, 0x00, 0x10, 0x00, 0x00, 0x00, 0x03, 0x00, 0x00, 0x00, 
  0x1c, 0x00, 0x00, 0x00, 0x48, 0xff, 0xff, 0xff, 0x0f, 0x00, 0x00, 0x00, 
  0x61, 0x72, 0x69, 0x74, 0x68, 0x2e, 0x63, 0x6f, 0x6e, 0x73, 0x74, 0x61, 
  0x6e, 0x74, 0x31, 0x00, 0x02, 0x00, 0x00, 0x00, 0x08, 0x00, 0x00, 0x00, 
  0x10, 0x00, 0x00, 0x00, 0x00, 0x00, 0x16, 0x00, 0x18, 0x00, 0x14, 0x00, 
  0x00, 0x00, 0x10, 0x00, 0x0c, 0x00, 0x08, 0x00, 0x00, 0x00, 0x00, 0x00, 
  0x00, 0x00, 0x07, 0x00, 0x16, 0x00, 0x00, 0x00, 0x00, 0x00, 0x00, 0x01, 
  0x10, 0x00, 0x00, 0x00, 0x10, 0x00, 0x00, 0x00, 0x02, 0x00, 0x00, 0x00, 
  0x1c, 0x00, 0x00, 0x00, 0x9c, 0xff, 0xff, 0xff, 0x0e, 0x00, 0x00, 0x00, 
  0x61, 0x72, 0x69, 0x74, 0x68, 0x2e, 0x63, 0x6f, 0x6e, 0x73, 0x74, 0x61, 
  0x6e, 0x74, 0x00, 0x00, 0x02, 0x00, 0x00, 0x00, 0x04, 0x00, 0x00, 0x00, 
  0x08, 0x00, 0x00, 0x00, 0x00, 0x00, 0x16, 0x00, 0x1c, 0x00, 0x18, 0x00, 
  0x00, 0x00, 0x14, 0x00, 0x10, 0x00, 0x0c, 0x00, 0x00, 0x00, 0x00, 0x00, 
  0x08, 0x00, 0x07, 0x00, 0x16, 0x00, 0x00, 0x00, 0x00, 0x00, 0x00, 0x01, 
  0x14, 0x00, 0x00, 0x00, 0x20, 0x00, 0x00, 0x00, 0x20, 0x00, 0x00, 0x00, 
  0x01, 0x00, 0x00, 0x00, 0x3c, 0x00, 0x00, 0x00, 0x02, 0x00, 0x00, 0x00, 
  0xff, 0xff, 0xff, 0xff, 0x07, 0x00, 0x00, 0x00, 0x04, 0x00, 0x04, 0x00, 
  0x04, 0x00, 0x00, 0x00, 0x1e, 0x00, 0x00, 0x00, 0x73, 0x65, 0x72, 0x76, 
  0x69, 0x6e, 0x67, 0x5f, 0x64, 0x65, 0x66, 0x61, 0x75, 0x6c, 0x74, 0x5f, 
  0x6b, 0x65, 0x72, 0x61, 0x73, 0x5f, 0x74, 0x65, 0x6e, 0x73, 0x6f, 0x72, 
  0x3a, 0x30, 0x00, 0x00, 0x02, 0x00, 0x00, 0x00, 0x01, 0x00, 0x00, 0x00, 
  0x07, 0x00, 0x00, 0x00, 0x02, 0x00, 0x00, 0x00, 0x20, 0x00, 0x00, 0x00, 
  0x04, 0x00, 0x00, 0x00, 0xf4, 0xff, 0xff, 0xff, 0x19, 0x00, 0x00, 0x00, 
  0x00, 0x00, 0x00, 0x19, 0x0c, 0x00, 0x0c, 0x00, 0x0b, 0x00, 0x00, 0x00, 
  0x00, 0x00, 0x04, 0x00, 0x0c, 0x00, 0x00, 0x00, 0x09, 0x00, 0x00, 0x00, 
  0x00, 0x00, 0x00, 0x09, 
};
const unsigned int model_tflite_len = 3304;
